b5e52ed5a182af63
a313b56636322843
00000000000034fd
b7d730de20f8b08e
9992b5f6375d2723
0000000000003592
b2d72659a3a9aa63
27fab0e932342835
0000000000003102
97c620b6250922d7
b081a4191c29a5f4
000000000000a42d
9e93180f22afa03c
b07ca5169cdba6b4
000000000000a575
1bd79a641ccb94c2
abea21771ee1a04b
00000000000024cc
b002a80dad54a1b5
b39faed5b29eb44b
000000000000b25e
2976255628842154
2ac227d12c2d2cee
0000000000002a6e
2d221ecc2abc10ff
31b52cc3305a3245
00000000000030a0
99fa34d0369830ed
b6baaf8d9f21a0d2
000000000000b489
9c52359b37cd322e
b80db061a0b4a9e4
000000000000b54c
9bb82fc5321a2979
b2daa7991c2ba30e
000000000000aef6
30bba928a9d32c76
b10d26d2295fb036
0000000000002cc8
31beab17ac43302b
b18d277529bab1cf
0000000000002ea3
2c4fa424a05825c8
abae1b2d247caa8a
0000000000002680
2fdf28312d702790
32db2c46335134ae
00000000000031d2
ac67a574ab5b9457
afe4a86eaf3db151
000000000000ad23
ab7a9f07a61ea4f3
aff4a930afa8b05e
000000000000aeb4
228e2f60af21a916
acef2dde30deaf41
000000000000a340
24d031f4b0b7ade2
ae172fce3252b0bc
000000000000a8ff
9e5b2b6ba9f2a38e
a900263e2c48a8fd
0000000000009eb7
a8979a75a9eea7e1
a6dfa8c62604aced
0000000000009dfc
a8b4a460a98ba03e
a989a6ef99daae83
000000000000a1cb
a1bfa4a41e641c46
1df7986ea008a826
000000000000a12f
a9a6b417b6deb1be
375532a1a3a9ab9b
000000000000357a
a8fcb48eb7f2b236
37ba32dba091ac2d
00000000000035e9
a830af1cb3b8ab40
33e42e18a4e7ab3d
000000000000314e
3040295830993066
24d629162548310c
000000000000ad00
b382b05fb42cb0f1
b241af02b1b7b542
000000000000ac96
2c9e2c8e2f492063
32052a6a31983375
00000000000030f4
2649231b8b222a4d
264d2b50b126ae11
0000000000002bbc
2597206d23231e29
a1b398ecacb0a51d
000000000000a747
a1f1ac97a3eaaac2
a015a963ab2620ba
000000000000ac64
b0162ec130042d36
2e982bbcb0bab526
0000000000002f99
b21730b630b72fa1
306d2eacb28bb72f
0000000000003115
ac09296f2cb62912
2c552858ac91b141
0000000000002bdc
3155b07db28eb009
b02faa1832a3352e
000000000000ac2b
3190aaccb008a8e7
b316afd0329e3567
000000000000b10d
2c9cac50aed6ab81
ac159d172dd030e6
000000000000a5cc
3637afae9c6f2f35
2474358eb6b728fa
000000000000b5c7
372cb03e1cc0309e
288835c1b8162340
000000000000b61c
3283aa63a01c26ff
29a831a5b39b25dc
000000000000b11b
a749aa2cabc4aa8f
2e1510d42cdd28e5
0000000000002ffd
a6c9a8c7ac14a6e7
2e8123092b2a21a5
000000000000309d
a38fa2b8a34626eb
24fea8c3255e20c5
00000000000024a7
acf9ababac9ca8ac
ae0eac2eacebad5b
000000000000ae46
33ca2ed432ed3160
328e3125314e357c
0000000000002d3d
b2adac7ab0bdb0fe
addcaf17adb0b229
00000000000020b0